<unk>	0
<s>	0
</s>	0
▁t	-0
he	-1
▁a	-2
in	-3
▁w	-4
▁the	-5
re	-6
▁s	-7
▁o	-8
▁m	-9
nd	-10
ou	-11
ed	-12
er	-13
at	-14
▁b	-15
it	-16
en	-17
▁f	-18
▁and	-19
▁c	-20
on	-21
▁h	-22
▁of	-23
is	-24
▁I	-25
▁to	-26
▁d	-27
es	-28
ing	-29
or	-30
▁th	-31
▁p	-32
▁in	-33
as	-34
ar	-35
an	-36
▁l	-37
ll	-38
▁n	-39
ic	-40
▁e	-41
▁he	-42
▁my	-43
ut	-44
om	-45
▁be	-46
▁ha	-47
le	-48
▁y	-49
▁“	-50
se	-51
▁re	-52
ion	-53
ot	-54
ow	-55
ly	-56
id	-57
st	-58
▁was	-59
ent	-60
▁wh	-61
ve	-62
▁you	-63
▁g	-64
ce	-65
▁that	-66
ld	-67
gh	-68
▁it	-69
ur	-70
▁on	-71
ver	-72
▁me	-73
im	-74
ith	-75
▁u	-76
▁with	-77
ct	-78
et	-79
▁sa	-80
ght	-81
ro	-82
ir	-83
▁as	-84
al	-85
▁for	-86
ri	-87
▁A	-88
▁had	-89
▁T	-90
red	-91
▁not	-92
▁an	-93
ould	-94
▁we	-95
ay	-96
▁de	-97
ess	-98
ain	-99
▁her	-100
her	-101
▁she	-102
ad	-103
ter	-104
▁but	-105
ch	-106
ice	-107
▁at	-108
pp	-109
ab	-110
ich	-111
▁con	-112
▁st	-113
▁his	-114
ation	-115
▁su	-116
▁sh	-117
if	-118
ge	-119
▁which	-120
ill	-121
ect	-122
▁fe	-123
▁se	-124
oo	-125
▁said	-126
▁so	-127
▁ex	-128
▁v	-129
▁by	-130
am	-131
th	-132
li	-133
ore	-134
▁this	-135
rom	-136
▁The	-137
il	-138
,”	-139
our	-140
ke	-141
▁whe	-142
▁r	-143
all	-144
▁is	-145
qu	-146
ure	-147
lf	-148
▁all	-149
ound	-150
▁have	-151
ard	-152
▁from	-153
▁M	-154
▁S	-155
▁Al	-156
nt	-157
ul	-158
▁H	-159
est	-160
ome	-161
ea	-162
▁or	-163
▁wor	-164
ight	-165
very	-166
▁ne	-167
em	-168
▁Alice	-169
▁dis	-170
▁were	-171
▁k	-172
ss	-173
ate	-174
ind	-175
▁al	-176
ust	-177
and	-178
reat	-179
self	-180
ved	-181
ous	-182
▁your	-183
▁W	-184
▁when	-185
us	-186
▁sp	-187
.”	-188
▁up	-189
▁ag	-190
▁ch	-191
▁do	-192
▁un	-193
ck	-194
▁G	-195
▁who	-196
ant	-197
end	-198
art	-199
!”	-200
▁him	-201
able	-202
▁man	-203
ers	-204
▁li	-205
um	-206
itt	-207
ence	-208
▁pro	-209
▁int	-210
▁they	-211
op	-212
▁C	-213
▁com	-214
▁j	-215
ast	-216
el	-217
ort	-218
▁P	-219
ook	-220
▁one	-221
la	-222
hed	-223
ber	-224
▁could	-225
▁kn	-226
▁no	-227
cc	-228
ra	-229
ong	-230
ear	-231
▁would	-232
ven	-233
▁B	-234
▁app	-235
ity	-236
out	-237
▁are	-238
ol	-239
ry	-240
▁F	-241
▁ab	-242
ject	-243
ff	-244
ought	-245
▁am	-246
ered	-247
ag	-248
one	-249
ance	-250
ive	-251
▁lo	-252
age	-253
pt	-254
▁pre	-255
▁D	-256
▁ar	-257
▁des	-258
un	-259
▁rem	-260
▁will	-261
▁if	-262
fore	-263
▁any	-264
▁them	-265
ther	-266
▁qu	-267
▁their	-268
▁can	-269
▁been	-270
▁_	-271
▁im	-272
ount	-273
ud	-274
▁po	-275
ish	-276
▁E	-277
ness	-278
are	-279
ame	-280
ist	-281
urn	-282
ated	-283
ood	-284
▁per	-285
ass	-286
nder	-287
▁work	-288
ap	-289
▁more	-290
▁mo	-291
▁en	-292
ine	-293
own	-294
ather	-295
ig	-296
lo	-297
ime	-298
▁some	-299
ath	-300
ep	-301
▁very	-302
ue	-303
▁should	-304
ings	-305
▁now	-306
ci	-307
▁thought	-308
uten	-309
▁again	-310
▁other	-311
ire	-312
ran	-313
▁into	-314
ment	-315
ite	-316
ions	-317
▁did	-318
▁what	-319
berg	-320
ittle	-321
▁know	-322
utenberg	-323
▁mis	-324
?”	-325
▁exp	-326
▁its	-327
▁then	-328
▁little	-329
▁L	-330
▁before	-331
▁out	-332
ak	-333
wn	-334
irst	-335
led	-336
ress	-337
▁comp	-338
▁feel	-339
▁ad	-340
▁only	-341
ies	-342
▁day	-343
ake	-344
▁look	-345
ink	-346
ough	-347
roject	-348
▁Gutenberg	-349
▁co	-350
▁gr	-351
ark	-352
ree	-353
▁fri	-354
▁there	-355
▁rep	-356
▁time	-357
ful	-358
▁ey	-359
ose	-360
▁over	-361
ie	-362
▁He	-363
▁Project	-364
co	-365
ced	-366
▁end	-367
▁O	-368
You	-369
▁than	-370
▁about	-371
▁beg	-372
▁ent	-373
▁see	-374
▁cont	-375
▁pass	-376
▁upon	-377
ward	-378
▁acc	-379
▁first	-380
ations	-381
▁might	-382
▁great	-383
ouse	-384
▁But	-385
▁like	-386
▁these	-387
▁fa	-388
os	-389
au	-390
ble	-391
ell	-392
ide	-393
ife	-394
fter	-395
od	-396
▁ret	-397
▁myself	-398
▁ob	-399
▁how	-400
lect	-401
▁ind	-402
▁our	-403
▁dist	-404
▁down	-405
▁us	-406
▁friend	-407
eth	-408
hat	-409
ile	-410
▁every	-411
orm	-412
▁bec	-413
▁mad	-414
▁may	-415
▁yet	-416
ious	-417
▁cons	-418
▁father	-419
oy	-420
ere	-421
other	-422
▁happ	-423
ne	-424
▁go	-425
▁ro	-426
▁eyes	-427
▁miser	-428
ene	-429
ise	-430
less	-431
ily	-432
ild	-433
▁own	-434
ited	-435
ning	-436
▁must	-437
way	-438
▁att	-439
▁found	-440
ang	-441
▁It	-442
▁sc	-443
▁life	-444
▁creat	-445
me	-446
▁shall	-447
▁1	-448
▁Th	-449
▁My	-450
▁tr	-451
wards	-452
▁such	-453
ng	-454
▁long	-455
▁imp	-456
▁ref	-457
▁count	-458
▁under	-459
ary	-460
ret	-461
▁off	-462
ert	-463
ied	-464
ves	-465
▁fo	-466
▁after	-467
uch	-468
▁res	-469
▁R	-470
ally	-471
ched	-472
▁pla	-473
▁too	-474
right	-475
▁even	-476
▁being	-477
lt	-478
ened	-479
ried	-480
ott	-481
erv	-482
ory	-483
leas	-484
so	-485
▁le	-486
▁never	-487
▁saw	-488
ds	-489
ru	-490
but	-491
ict	-492
ull	-493
▁dre	-494
▁ever	-495
ked	-496
▁vo	-497
▁inc	-498
▁hand	-499
▁part	-500
llow	-501
▁nat	-502
▁most	-503
▁pr	-504
▁She	-505
▁went	-506
ph	-507
▁N	-508
▁ear	-509
▁felt	-510
▁return	-511
▁(	-512
▁mind	-513
▁where	-514
hen	-515
▁pl	-516
ears	-517
ents	-518
▁form	-519
▁made	-520
ces	-521
orr	-522
▁dear	-523
▁K	-524
▁tw	-525
▁hop	-526
▁cour	-527
▁dest	-528
▁much	-529
▁rest	-530
ens	-531
ving	-532
▁night	-533
▁those	-534
▁herself	-535
imes	-536
▁aff	-537
▁say	-538
ained	-539
▁love	-540
▁pres	-541
▁pleas	-542
▁voice	-543
▁br	-544
▁near	-545
▁towards	-546
ished	-547
▁heart	-548
liz	-549
hing	-550
abeth	-551
▁heard	-552
lizabeth	-553
cei	-554
erm	-555
▁wo	-556
atter	-557
ection	-558
▁mon	-559
▁seem	-560
▁soon	-561
ach	-562
eed	-563
ign	-564
▁You	-565
▁cop	-566
▁mom	-567
▁This	-568
▁think	-569
▁Elizabeth	-570
ired	-571
▁thr	-572
▁tre	-573
▁inst	-574
▁same	-575
ft	-576
hap	-577
ick	-578
lie	-579
▁bl	-580
ures	-581
▁pur	-582
▁dep	-583
▁conf	-584
▁began	-585
▁child	-586
▁cr	-587
▁gu	-588
ling	-589
ured	-590
▁And	-591
▁occ	-592
light	-593
▁head	-594
▁turn	-595
▁death	-596
▁Q	-597
The	-598
air	-599
urd	-600
ense	-601
ting	-602
▁don	-603
▁whom	-604
bit	-605
ause	-606
▁came	-607
▁well	-608
▁disco	-609
▁sm	-610
ined	-611
vers	-612
▁away	-613
▁kind	-614
▁ev	-615
ever	-616
▁cott	-617
▁many	-618
▁suff	-619
hy	-620
▁sw	-621
▁sur	-622
▁way	-623
ently	-624
vered	-625
▁comm	-626
ued	-627
▁1.	-628
▁fi	-629
▁old	-630
▁wat	-631
iness	-632
▁just	-633
▁still	-634
▁while	-635
▁feelings	-636
aut	-637
fort	-638
▁che	-639
▁cur	-640
▁som	-641
eared	-642
up	-643
ock	-644
▁Que	-645
▁let	-646
uring	-647
▁poss	-648
▁supp	-649
mp	-650
ack	-651
▁ac	-652
▁murd	-653
▁Queen	-654
▁words	-655
▁U	-656
ave	-657
ted	-658
▁Tur	-659
▁has	-660
▁desp	-661
ressed	-662
▁works	-663
▁contin	-664
▁looked	-665
che	-666
iff	-667
ors	-668
▁J	-669
▁wr	-670
form	-671
▁add	-672
▁few	-673
▁hum	-674
▁also	-675
▁moment	-676
▁passed	-677
owed	-678
▁exc	-679
ribut	-680
▁mean	-681
ceived	-682
ren	-683
ult	-684
▁In	-685
ates	-686
lied	-687
▁without	-688
arm	-689
old	-690
▁If	-691
▁op	-692
land	-693
▁get	-694
▁beaut	-695
▁place	-696
▁stran	-697
▁indeed	-698
not	-699
ord	-700
ost	-701
▁gl	-702
ours	-703
▁copy	-704
▁hard	-705
▁here	-706
▁last	-707
▁pers	-708
aw	-709
alk	-710
ged	-711
ude	-712
▁pe	-713
ains	-714
▁fear	-715
▁make	-716
sp	-717
tle	-718
▁cl	-719
▁fl	-720
irit	-721
ised	-722
▁sat	-723
▁diff	-724
▁sens	-725
▁human	-726
▁wonder	-727
▁another	-728
igh	-729
ared	-730
▁sun	-731
▁two	-732
▁read	-733
etimes	-734
▁appear	-735
▁spirit	-736
▁country	-737
▁appeared	-738
▁miserable	-739
▁Y	-740
ron	-741
▁wa	-742
▁belie	-743
▁inter	-744
▁follow	-745
oke	-746
▁ta	-747
read	-748
ction	-749
▁call	-750
▁poor	-751
▁wind	-752
▁wret	-753
▁became	-754
▁seemed	-755
▁friends	-756
▁reflect	-757
ip	-758
arch	-759
arge	-760
▁lea	-761
▁unt	-762
▁use	-763
▁King	-764
▁among	-765
▁elect	-766
den	-767
▁Cl	-768
▁id	-769
cept	-770
ible	-771
ower	-772
▁vis	-773
▁through	-774
ew	-775
▁*	-776
▁‘	-777
ten	-778
▁We	-779
▁min	-780
▁mount	-781
▁thing	-782
▁nothing	-783
ac	-784
mb	-785
enev	-786
ected	-787
erval	-788
itted	-789
▁days	-790
▁good	-791
▁took	-792
▁remem	-793
▁Turtle	-794
▁Clerval	-795
iv	-796
the	-797
▁sub	-798
ronic	-799
▁Just	-800
▁come	-801
▁house	-802
▁often	-803
▁electronic	-804
iz	-805
eav	-806
ons	-807
roy	-808
ster	-809
▁ass	-810
▁det	-811
▁new	-812
▁Mock	-813
▁deep	-814
▁quite	-815
▁world	-816
▁destroy	-817
It	-818
xt	-819
ange	-820
phon	-821
▁bet	-822
▁When	-823
▁hope	-824
▁horr	-825
▁once	-826
▁prom	-827
▁light	-828
▁until	-829
▁endeav	-830
▁possess	-831
▁replied	-832
▁Ar	-833
▁ra	-834
ceed	-835
ener	-836
most	-837
▁Gry	-838
▁dec	-839
▁mor	-840
▁set	-841
▁tak	-842
ition	-843
▁back	-844
▁door	-845
▁find	-846
▁Hatter	-847
▁cannot	-848
▁Gryphon	-849
ec	-850
ase	-851
eli	-852
lic	-853
▁As	-854
▁Wh	-855
▁ke	-856
used	-857
▁Cat	-858
▁sou	-859
▁purs	-860
fortun	-861
though	-862
▁misery	-863
▁delight	-864
pl	-865
erp	-866
ken	-867
ody	-868
oud	-869
▁St	-870
erms	-871
▁How	-872
▁clo	-873
▁ext	-874
▁put	-875
▁reg	-876
abbit	-877
▁mann	-878
▁sever	-879
▁sound	-880
▁Justine	-881
ty	-882
—”	-883
app	-884
ury	-885
▁far	-886
▁joy	-887
▁arri	-888
▁best	-889
▁hands	-890
▁round	-891
▁whose	-892
ger	-893
ney	-894
per	-895
▁pa	-896
▁bit	-897
▁sil	-898
▁tor	-899
▁tra	-900
▁conc	-901
ertain	-902
▁minut	-903
▁consid	-904
▁rather	-905
▁cottage	-906
▁despair	-907
▁V	-908
get	-909
ual	-910
elix	-911
iful	-912
▁law	-913
ledge	-914
thing	-915
▁care	-916
▁alone	-917
▁month	-918
▁compan	-919
▁present	-920
iss	-921
rie	-922
dden	-923
leep	-924
▁fam	-925
▁inn	-926
▁dark	-927
▁left	-928
▁list	-929
▁terms	-930
▁during	-931
▁several	-932
▁although	-933
▁affection	-934
▁happiness	-935
ank	-936
cri	-937
eak	-938
laim	-939
itude	-940
▁Chap	-941
▁idea	-942
▁imag	-943
▁thus	-944
▁wish	-945
▁Found	-946
▁nature	-947
▁sudden	-948
▁Chapter	-949
▁counten	-950
▁creature	-951
▁Foundation	-952
du	-953
▁adv	-954
▁air	-955
▁lab	-956
▁men	-957
▁sea	-958
ither	-959
▁cond	-960
▁full	-961
▁gave	-962
▁knew	-963
▁right	-964
▁Rabbit	-965
▁almost	-966
▁distribut	-967
int	-968
lan	-969
ned	-970
▁Du	-971
▁sy	-972
empt	-973
▁cre	-974
▁hea	-975
▁inf	-976
▁nor	-977
▁free	-978
▁gent	-979
▁prov	-980
▁wood	-981
▁begin	-982
▁happy	-983
▁occup	-984
▁resol	-985
▁years	-986
oc	-987
unt	-988
▁got	-989
▁rec	-990
▁sin	-991
▁reco	-992
▁room	-993
▁tran	-994
▁Felix	-995
▁whole	-996
▁young	-997
▁horror	-998
▁letter	-999
sh	-1000
sw	-1001
der	-1002
med	-1003
oub	-1004
▁ut	-1005
▁They	-1006
▁half	-1007
▁lear	-1008
▁exist	-1009
▁power	-1010
▁scene	-1011
▁course	-1012
▁underst	-1013
sel	-1014
What	-1015
ided	-1016
▁deg	-1017
▁ice	-1018
ister	-1019
orrow	-1020
▁dire	-1021
▁hast	-1022
▁hear	-1023
▁jour	-1024
▁tone	-1025
▁change	-1026
▁things	-1027
▁himself	-1028
ps	-1029
act	-1030
lud	-1031
▁bo	-1032
ason	-1033
ully	-1034
▁beh	-1035
▁rel	-1036
chess	-1037
ement	-1038
erest	-1039
▁answ	-1040
ention	-1041
▁dream	-1042
▁earth	-1043
▁spoke	-1044
▁depart	-1045
▁Duchess	-1046
▁morning	-1047
▁continued	-1048
▁sometimes	-1049
cy	-1050
pr	-1051
ety	-1052
let	-1053
cted	-1054
eace	-1055
ross	-1056
▁Eng	-1057
▁ill	-1058
▁obs	-1059
▁opp	-1060
iting	-1061
ments	-1062
▁agre	-1063
▁high	-1064
▁less	-1065
▁live	-1066
▁next	-1067
▁play	-1068
▁prot	-1069
▁stud	-1070
▁There	-1071
▁bound	-1072
▁cause	-1073
▁large	-1074
▁called	-1075
▁nearly	-1076
▁within	-1077
▁believe	-1078
▁certain	-1079
we	-1080
bed	-1081
joy	-1082
ont	-1083
uish	-1084
▁ang	-1085
▁cal	-1086
▁dev	-1087
▁fan	-1088
▁hur	-1089
fully	-1090
▁Dorm	-1091
▁soul	-1092
▁appro	-1093
▁since	-1094
▁turned	-1095
▁looking	-1096
▁strange	-1097
▁Dormouse	-1098
▁thoughts	-1099
man	-1100
▁sn	-1101
aught	-1102
illed	-1103
▁does	-1104
▁stre	-1105
▁tell	-1106
▁peace	-1107
▁sight	-1108
▁state	-1109
▁months	-1110
▁remark	-1111
▁journey	-1112
▁pleasure	-1113
▁wretched	-1114
▁countenance	-1115
ER	-1116
ial	-1117
irl	-1118
ony	-1119
ove	-1120
raw	-1121
▁So	-1122
▁Un	-1123
ants	-1124
haps	-1125
ular	-1126
ways	-1127
▁sec	-1128
aking	-1129
▁take	-1130
▁fiend	-1131
▁hours	-1132
▁quick	-1133
▁sleep	-1134
▁speak	-1135
▁tears	-1136
ination	-1137
▁become	-1138
▁fellow	-1139
▁hardly	-1140
▁remain	-1141
▁entered	-1142
▁yourself	-1143
▁possessed	-1144
be	-1145
les	-1146
ool	-1147
▁pu	-1148
ides	-1149
iter	-1150
▁Yet	-1151
▁cat	-1152
▁eff	-1153
▁glo	-1154
▁tri	-1155
▁var	-1156
ances	-1157
ended	-1158
oured	-1159
▁exec	-1160
▁requ	-1161
▁March	-1162
▁enjoy	-1163
▁innoc	-1164
▁taken	-1165
▁three	-1166
▁around	-1167
▁consider	-1168
▁mountains	-1169
▁therefore	-1170
bs	-1171
hor	-1172
▁sl	-1173
cess	-1174
▁For	-1175
▁fin	-1176
▁par	-1177
▁ter	-1178
ating	-1179
eneva	-1180
ready	-1181
▁What	-1182
▁Will	-1183
▁acqu	-1184
▁anim	-1185
▁each	-1186
▁gard	-1187
▁talk	-1188
▁dread	-1189
▁gener	-1190
▁quest	-1191
▁gentle	-1192
▁itself	-1193
▁sister	-1194
▁already	-1195
▁convers	-1196
▁however	-1197
▁copyright	-1198
▁knowledge	-1199
.’	-1200
TM	-1201
ek	-1202
ib	-1203
ail	-1204
xed	-1205
▁gi	-1206
Book	-1207
ught	-1208
ural	-1209
▁act	-1210
▁arm	-1211
antly	-1212
mpath	-1213
ually	-1214
▁behe	-1215
▁coll	-1216
▁doub	-1217
▁face	-1218
▁girl	-1219
▁give	-1220
▁seen	-1221
▁tale	-1222
ainted	-1223
ething	-1224
▁cried	-1225
▁forth	-1226
▁going	-1227
▁small	-1228
▁surpr	-1229
▁watch	-1230
▁always	-1231
▁bitter	-1232
▁heaven	-1233
▁person	-1234
▁differe	-1235
▁express	-1236
▁remained	-1237
▁suddenly	-1238
▁beautiful	-1239
▁discovered	-1240
iam	-1241
iol	-1242
ond	-1243
▁At	-1244
▁ph	-1245
angu	-1246
fect	-1247
▁His	-1248
▁lay	-1249
ached	-1250
tered	-1251
▁fall	-1252
▁lost	-1253
cience	-1254
idence	-1255
▁means	-1256
▁execut	-1257
▁garden	-1258
▁others	-1259
▁feeling	-1260
▁perhaps	-1261
▁sympath	-1262
▁agreement	-1263
sed	-1264
▁Ag	-1265
▁ard	-1266
owing	-1267
▁dead	-1268
▁grie	-1269
▁mine	-1270
▁sure	-1271
ousand	-1272
▁asked	-1273
▁eBook	-1274
▁tried	-1275
▁Geneva	-1276
▁desire	-1277
▁manner	-1278
▁mother	-1279
▁object	-1280
▁reason	-1281
▁returned	-1282
▁creatures	-1283
▁misfortun	-1284
▁something	-1285
Oh	-1286
hes	-1287
ian	-1288
its	-1289
mon	-1290
▁Sa	-1291
▁aw	-1292
▁ru	-1293
▁sk	-1294
ager	-1295
ople	-1296
vour	-1297
▁anx	-1298
▁cle	-1299
▁ins	-1300
▁cold	-1301
▁feet	-1302
▁land	-1303
▁perm	-1304
▁refu	-1305
▁sent	-1306
▁viol	-1307
▁wand	-1308
▁family	-1309
▁ground	-1310
▁sorrow	-1311
▁interest	-1312
▁thousand	-1313
▁existence	-1314
▁sensations	-1315
to	-1316
irc	-1317
omp	-1318
oth	-1319
▁ed	-1320
ased	-1321
erer	-1322
osed	-1323
▁bro	-1324
▁inh	-1325
▁swe	-1326
▁unc	-1327
alked	-1328
ering	-1329
erved	-1330
▁Hare	-1331
▁fire	-1332
▁mark	-1333
ceeded	-1334
▁close	-1335
▁beheld	-1336
▁having	-1337
▁against	-1338
▁brother	-1339
▁brought	-1340
▁spirits	-1341
▁subject	-1342
▁resolved	-1343
▁appearance	-1344
HA	-1345
esc	-1346
▁jo	-1347
That	-1348
ably	-1349
aged	-1350
here	-1351
ical	-1352
ient	-1353
pped	-1354
raph	-1355
tern	-1356
that	-1357
▁bus	-1358
▁car	-1359
▁eas	-1360
▁sol	-1361
▁try	-1362
ately	-1363
ility	-1364
▁Arch	-1365
▁circ	-1366
▁enem	-1367
▁fort	-1368
▁hist	-1369
▁home	-1370
▁prof	-1371
▁prop	-1372
▁town	-1373
icense	-1374
▁added	-1375
▁court	-1376
▁langu	-1377
▁loved	-1378
▁youth	-1379
▁States	-1380
▁United	-1381
▁enough	-1382
▁minute	-1383
▁people	-1384
▁William	-1385
▁arrived	-1386
▁monster	-1387
▁followed	-1388
▁remember	-1389
▁companion	-1390
▁different	-1391
▁GutenbergTM	-1392
▁2	-1393
arr	-1394
ein	-1395
eng	-1396
oun	-1397
ush	-1398
▁Oh	-1399
▁On	-1400
oman	-1401
well	-1402
▁cor	-1403
▁emp	-1404
▁eng	-1405
▁sum	-1406
▁won	-1407
arent	-1408
ceive	-1409
ictor	-1410
illar	-1411
kenst	-1412
▁disc	-1413
▁laws	-1414
▁pain	-1415
▁warm	-1416
erning	-1417
▁Mouse	-1418
▁doubt	-1419
▁eager	-1420
▁grief	-1421
▁inhab	-1422
▁produ	-1423
itation	-1424
▁answer	-1425
▁determ	-1426
▁placed	-1427
▁rememb	-1428
erpillar	-1429
kenstein	-1430
▁children	-1431
rankenstein	-1432
▁understand	-1433
ee	-1434
lp	-1435
cip	-1436
iew	-1437
imp	-1438
irt	-1439
val	-1440
▁ca	-1441
ages	-1442
ific	-1443
rupt	-1444
▁ask	-1445
▁cap	-1446
▁fat	-1447
▁lim	-1448
▁mag	-1449
▁tea	-1450
▁unh	-1451
ength	-1452
round	-1453
▁char	-1454
▁guil	-1455
▁help	-1456
▁hold	-1457
▁walk	-1458
▁want	-1459
▁extre	-1460
▁leave	-1461
▁sweet	-1462
▁Victor	-1463
▁favour	-1464
▁length	-1465
▁lovely	-1466
▁native	-1467
▁opened	-1468
▁account	-1469
▁because	-1470
▁quickly	-1471
▁science	-1472
▁discover	-1473
▁Caterpillar	-1474
▁endeavoured	-1475
▁Frankenstein	-1476
ho	-1477
mn	-1478
But	-1479
ade	-1480
cho	-1481
fie	-1482
loy	-1483
ung	-1484
you	-1485
▁No	-1486
▁em	-1487
▁ir	-1488
alth	-1489
ices	-1490
iled	-1491
iles	-1492
nest	-1493
rate	-1494
umst	-1495
▁adm	-1496
▁fre	-1497
▁fut	-1498
▁jud	-1499
▁mar	-1500
▁obt	-1501
▁bene	-1502
▁book	-1503
▁calm	-1504
▁hour	-1505
▁name	-1506
▁open	-1507
▁purp	-1508
▁seek	-1509
▁sole	-1510
▁agony	-1511
▁ought	-1512
▁trees	-1513
iterary	-1514
▁beauty	-1515
▁better	-1516
▁includ	-1517
▁natural	-1518
▁perform	-1519
▁various	-1520
▁greatest	-1521
▁kindness	-1522
▁murderer	-1523
▁received	-1524
▁concerning	-1525
▁conversation	-1526
PT	-1527
ils	-1528
adem	-1529
body	-1530
cend	-1531
come	-1532
enry	-1533
ison	-1534
ring	-1535
ween	-1536
▁bir	-1537
▁eye	-1538
agers	-1539
loved	-1540
ousin	-1541
▁died	-1542
▁disp	-1543
▁food	-1544
▁gone	-1545
▁jury	-1546
▁lake	-1547
▁path	-1548
▁step	-1549
▁view	-1550
agraph	-1551
iously	-1552
laimed	-1553
▁Henry	-1554
▁lived	-1555
▁utter	-1556
ademark	-1557
▁access	-1558
▁comply	-1559
▁employ	-1560
▁filled	-1561
▁fright	-1562
▁longer	-1563
▁necess	-1564
▁walked	-1565
▁Archive	-1566
▁history	-1567
▁passion	-1568
▁support	-1569
formation	-1570
▁Literary	-1571
▁anything	-1572
▁circumst	-1573
▁question	-1574
▁expressed	-1575
▁paragraph	-1576
▁perceived	-1577
EN	-1578
az	-1579
gg	-1580
How	-1581
iny	-1582
irm	-1583
rew	-1584
▁ri	-1585
akes	-1586
omed	-1587
ying	-1588
▁die	-1589
▁eat	-1590
▁sit	-1591
▁why	-1592
aster	-1593
choly	-1594
rible	-1595
venge	-1596
▁body	-1597
▁drew	-1598
▁prep	-1599
▁prev	-1600
▁rage	-1601
▁real	-1602
▁side	-1603
▁snow	-1604
▁true	-1605
▁wild	-1606
▁word	-1607
itness	-1608
▁chang	-1609
▁fixed	-1610
▁persu	-1611
▁spent	-1612
▁tremb	-1613
▁water	-1614
ruction	-1615
▁cousin	-1616
▁descri	-1617
▁entire	-1618
▁listen	-1619
▁murder	-1620
▁suffer	-1621
▁attempt	-1622
▁beloved	-1623
▁desired	-1624
▁greater	-1625
▁silence	-1626
▁whether	-1627
▁exclaimed	-1628
My	-1629
of	-1630
And	-1631
ape	-1632
ash	-1633
eri	-1634
isf	-1635
res	-1636
▁Do	-1637
▁“‘	-1638
HAPT	-1639
idly	-1640
ield	-1641
ilos	-1642
lain	-1643
▁Som	-1644
▁bel	-1645
▁fee	-1646
▁ran	-1647
ingly	-1648
ities	-1649
▁both	-1650
▁done	-1651
▁fell	-1652
▁keep	-1653
▁plan	-1654
▁rend	-1655
▁repe	-1656
▁self	-1657
▁stru	-1658
▁virt	-1659
HAPTER	-1660
gether	-1661
ilosop	-1662
▁melan	-1663
▁pursu	-1664
▁shore	-1665
▁visit	-1666
▁woman	-1667
olation	-1668
▁behind	-1669
▁deeply	-1670
▁degree	-1671
▁future	-1672
▁suffic	-1673
▁tranqu	-1674
▁unhapp	-1675
▁wretch	-1676
▁CHAPTER	-1677
▁between	-1678
▁occupied	-1679
▁philosop	-1680
▁surround	-1681
▁certainly	-1682
▁donations	-1683
▁trademark	-1684
▁melancholy	-1685
ze	-1686
Why	-1687
for	-1688
▁ce	-1689
Well	-1690
aded	-1691
ames	-1692
medi	-1693
▁abs	-1694
▁ele	-1695
▁gra	-1696
▁hor	-1697
▁inv	-1698
▁low	-1699
▁mot	-1700
▁sad	-1701
▁unf	-1702
owers	-1703
usion	-1704
▁dang	-1705
▁moon	-1706
▁prog	-1707
▁seiz	-1708
▁sort	-1709
▁summ	-1710
▁tort	-1711
itting	-1712
▁Safie	-1713
▁abhor	-1714
▁enemy	-1715
▁gloom	-1716
▁hopes	-1717
▁short	-1718
▁disapp	-1719
▁easily	-1720
▁anguish	-1721
▁endured	-1722
▁getting	-1723
▁promise	-1724
▁protect	-1725
▁revenge	-1726
▁witness	-1727
▁distance	-1728
▁Sometimes	-1729
▁beginning	-1730
▁cottagers	-1731
▁destroyed	-1732
▁imagination	-1733
IT	-1734
ww	-1735
ace	-1736
ask	-1737
▁av	-1738
▁fr	-1739
▁fu	-1740
atha	-1741
ches	-1742
lack	-1743
ored	-1744
soci	-1745
▁Why	-1746
▁bed	-1747
▁del	-1748
▁dut	-1749
▁enc	-1750
▁exh	-1751
▁ign	-1752
▁led	-1753
▁ven	-1754
aring	-1755
enced	-1756
icult	-1757
▁evil	-1758
▁foot	-1759
▁grow	-1760
▁meet	-1761
▁mist	-1762
▁pict	-1763
▁sing	-1764
▁spot	-1765
▁used	-1766
enevol	-1767
icular	-1768
ission	-1769
itions	-1770
▁White	-1771
▁agree	-1772
▁blood	-1773
▁occur	-1774
▁trave	-1775
▁trial	-1776
▁across	-1777
▁beings	-1778
▁silent	-1779
▁solemn	-1780
▁unable	-1781
▁window	-1782
▁England	-1783
▁benevol	-1784
▁courage	-1785
▁extreme	-1786
▁quitted	-1787
▁entirely	-1788
▁stranger	-1789
▁attention	-1790
▁difficult	-1791
Do	-1792
ars	-1793
ati	-1794
rer	-1795
she	-1796
uth	-1797
Come	-1798
▁God	-1799
▁Let	-1800
▁bar	-1801
▁esc	-1802
▁mem	-1803
▁pap	-1804
▁rap	-1805
▁tem	-1806
anced	-1807
ccess	-1808
ising	-1809
osity	-1810
▁conv	-1811
▁draw	-1812
▁hide	-1813
▁none	-1814
▁proc	-1815
▁rose	-1816
▁serv	-1817
▁shut	-1818
▁till	-1819
▁vict	-1820
geance	-1821
selves	-1822
▁condu	-1823
▁deare	-1824
▁devot	-1825
▁incre	-1826
▁least	-1827
aughter	-1828
▁Agatha	-1829
▁associ	-1830
▁attend	-1831
▁bright	-1832
▁formed	-1833
▁immedi	-1834
▁curious	-1835
▁hastily	-1836
▁creation	-1837
▁mountain	-1838
▁observed	-1839
▁suffered	-1840
▁unfortun	-1841
▁endeavour	-1842
▁instantly	-1843
▁interrupt	-1844
▁vengeance	-1845
▁destruction	-1846
No	-1847
_,	-1848
aj	-1849
ex	-1850
ug	-1851
amp	-1852
asp	-1853
eci	-1854
iod	-1855
ium	-1856
oot	-1857
org	-1858
ump	-1859
▁Be	-1860
▁el	-1861
lete	-1862
liar	-1863
ract	-1864
rely	-1865
▁equ	-1866
▁fur	-1867
▁hid	-1868
▁str	-1869
▁ves	-1870
▁vol	-1871
ajest	-1872
ented	-1873
ortun	-1874
rance	-1875
▁glad	-1876
▁inqu	-1877
▁resp	-1878
▁told	-1879
▁After	-1880
▁These	-1881
▁black	-1882
▁cheer	-1883
▁given	-1884
▁moder	-1885
▁story	-1886
▁charge	-1887
▁desert	-1888
▁effect	-1889
▁obtain	-1890
▁period	-1891
▁satisf	-1892
▁secret	-1893
▁vessel	-1894
▁victim	-1895
▁wished	-1896
▁License	-1897
▁allowed	-1898
▁hurried	-1899
▁inhabit	-1900
▁learned	-1901
▁manners	-1902
▁purpose	-1903
▁unhappy	-1904
gutenberg	-1905
▁murdered	-1906
▁progress	-1907
▁surprised	-1908
▁acquainted	-1909
▁sufficient	-1910
If	-1911
ah	-1912
gs	-1913
uc	-1914
ier	-1915
oup	-1916
▁TH	-1917
▁“_	-1918
▁“—	-1919
amed	-1920
cell	-1921
cing	-1922
cked	-1923
ills	-1924
like	-1925
lish	-1926
▁	-1927
e	-1928
t	-1929
a	-1930
o	-1931
n	-1932
i	-1933
s	-1934
r	-1935
h	-1936
d	-1937
l	-1938
u	-1939
m	-1940
c	-1941
f	-1942
y	-1943
w	-1944
g	-1945
p	-1946
,	-1947
b	-1948
v	-1949
.	-1950
I	-1951
k	-1952
“	-1953
”	-1954
;	-1955
T	-1956
A	-1957
’	-1958
x	-1959
!	-1960
j	-1961
S	-1962
H	-1963
M	-1964
_	-1965
W	-1966
E	-1967
q	-1968
?	-1969
—	-1970
C	-1971
G	-1972
B	-1973
P	-1974
F	-1975
D	-1976
:	-1977
O	-1978
-	-1979
z	-1980
Y	-1981
R	-1982
N	-1983
L	-1984
1	-1985
U	-1986
(	-1987
)	-1988
K	-1989
‘	-1990
Q	-1991
J	-1992
V	-1993
*	-1994
2	-1995
0	-1996
